▁. 202350
▁ku 95365
▁the 76913
s 74893
▁, 59373
▁na 52871
▁a 52074
▁ya 51605
▁hi 50913
▁to 47626
▁of 46248
▁eka 35204
▁wa 34790
▁va 33119
▁and 30852
▁swi 30739
▁is 30208
▁nga 29335
▁ta 27390
▁in 25479
▁ka 24135
ka 23276
' 22765
▁ 21935
ing 19863
▁xa 18881
ed 18004
▁swa 17779
le 17642
d 17514
▁be 16869
la 16860
▁I 16717
n 16477
▁xi 15593
▁ri 15276
▁for 15192
▁leswi 15142
▁that 15090
▁yi 15031
a 13986
▁The 13723
wana 13576
▁are 12847
▁ti 12590
▁i 12560
▁this 12560
ni 12510
- 12412
e 12228
▁leyi 12088
▁: 11882
▁leswaku 11543
c 11359
lo 11276
r 11232
ri 11140
t 11138
▁A 10932
▁we 10928
ti 10895
▁fanele 10715
▁not 10616
▁ra 10325
▁le 10179
▁Ku 10103
▁on 9971
▁yo 9869
li 9826
▁bya 9794
▁n 9612
u 9554
▁u 9496
na 9464
▁have 9436
▁will 9330
ly 9301
▁? 8976
▁wu 8890
▁Hi 8888
te 8816
se 8695
▁ndzi 8623
si 8365
▁with 8317
re 8248
▁ma 7986
y 7707
▁e 7682
▁) 7649
al 7431
▁it 7416
▁lava 7374
▁lowu 7367
ne 7348
▁We 7131
ma 7115
▁( 7073
▁or 7039
ra 6976
▁as 6963
er 6931
wa 6891
ki 6867
▁you 6863
ha 6827
o 6820
we 6784
i 6659
p 6511
▁kumbe 6480
▁wo 6410
ta 6335
▁vu 6221
▁must 6199
▁lexi 6149
mi 6014
▁This 5981
▁mi 5854
nd 5762
▁ha 5639
▁by 5591
▁It 5562
ke 5552
l 5499
g 5491
▁has 5489
▁an 5480
▁endla 5458
▁nkarhi 5453
▁nkoka 5438
me 5430
▁N 5271
ko 5239
he 5227
ve 5170
▁Ndzi 5155
st 5004
▁no 4967
to 4921
▁hina 4903
sa 4863
▁ni 4805
▁Swi 4755
▁swinene 4746
▁do 4656
▁vanhu 4646
▁swo 4575
ation 4516
ku 4500
va 4488
vi 4458
▁mhaka 4417
ro 4414
▁vona 4405
nga 4403
▁at 4345
in 4335
hi 4334
no 4329
▁all 4308
▁Ma 4299
▁S 4213
ya 4209
▁loko 4186
▁leri 4177
▁can 4147
▁leti 4146
▁re 4110
▁our 4025
▁; 4001
di 3957
yi 3957
▁In 3923
▁from 3901
▁1 3873
m 3872
▁T 3829
▁M 3808
▁should 3769
▁P 3754
mu 3751
▁- 3735
▁also 3700
▁ndlela 3683
▁mu 3677
▁kona 3621
▁been 3607
▁2 3568
so 3537
▁Leswi 3529
ce 3513
▁laha 3501
▁tala 3474
▁c 3465
▁xo 3425
▁ntirho 3401
tion 3383
▁E 3346
▁R 3312
▁3 3307
ho 3301
▁was 3299
ment 3254
▁South 3252
▁se 3238
▁C 3228
ng 3211
▁swona 3196
▁Xi 3161
mo 3155
▁kahle 3154
▁mfumo 3132
▁un 3114
▁your 3099
▁That 3039
▁emahlweni 3036
▁there 3034
fu 3022
▁ko 3015
es 2952
▁Va 2931
▁de 2919
▁need 2916
▁wena 2871
▁naswona 2870
wi 2840
▁ro 2838
▁U 2836
mp 2818
ion 2816
b 2813
▁Loko 2776
▁nyika 2770
▁which 2764
▁tirha 2759
▁xiyimo 2757
▁byi 2754
ngi 2748
ur 2745
ent 2737
nce 2726
▁so 2723
k 2711
mbe 2691
▁would 2678
▁vula 2670
▁Afrika 2669
▁" 2645
▁other 2640
▁more 2626
▁work 2621
▁their 2591
▁sungula 2582
▁these 2570
lu 2559
▁about 2553
or 2537
▁Vu 2532
▁Ti 2531
▁people 2529
th 2522
▁s 2517
xi 2511
▁lama 2503
▁p 2491
pi 2486
▁tanihi 2483
▁what 2481
co 2476
▁faneleke 2476
▁they 2474
de 2466
pa 2444
A 2425
vu 2420
▁Xana 2398
ge 2389
▁may 2387
▁time 2377
▁us 2368
riwa 2366
▁karhi 2364
nge 2354
ts 2354
▁si 2351
▁one 2350
▁report 2334
ll 2330
hla 2328
▁mitirho 2304
able 2302
▁yin 2302
▁swin 2297
fa 2285
▁xin 2284
▁kuma 2281
pe 2280
po 2270
▁co 2268
ar 2267
▁teka 2262
▁Africa 2249
▁/ 2233
mba 2223
▁timhaka 2208
nkulu 2197
fi 2186
I 2182
xa 2177
▁mayelana 2171
▁very 2164
h 2163
en 2159
▁important 2157
▁support 2155
w 2150
▁4 2148
▁me 2148
▁katsa 2142
▁Eka 2126
▁landzelaka 2113
▁humelela 2079
xe 2074
▁any 2055
▁like 2030
hu 2012
▁tiko 1995
▁There 1994
▁government 1991
ted 1983
▁lebyi 1981
▁he 1963
▁public 1961
f 1959
ers 1946
▁who 1946
▁sweswo 1944
▁sweswi 1942
▁con 1902
▁tirhisa 1900
lela 1895
▁Mi 1893
vo 1888
▁endliwa 1887
ba 1859
▁IDP 1857
▁mina 1855
▁vukorhokeri 1847
▁tsakela 1845
▁tlhela 1844
▁xikombelo 1843
0 1842
▁cinca 1842
▁make 1839
tu 1837
▁hambana 1837
▁ntsena 1832
siwa 1816
▁development 1816
▁vi 1815
▁community 1801
▁la 1784
▁tin 1783
▁process 1774
▁su 1774
▁ward 1772
▁African 1767
1 1762
▁suka 1761
wile 1760
▁take 1747
▁If 1744
▁following 1730
nt 1724
▁nawu 1724
▁Hambiswiritano 1718
▁byo 1717
▁ex 1710
▁yona 1709
ntshwa 1707
▁pa 1707
ity 1703
gi 1697
▁loyi 1694
▁yini 1693
▁go 1675
▁mali 1672
▁lembe 1668
▁com 1659
on 1650
▁form 1650
E 1647
ch 1647
▁new 1647
▁vaakindhawu 1647
▁Act 1643
ive 1641
mbi 1638
an 1630
▁fana 1629
▁d 1628
▁What 1624
▁CBP 1622
▁5 1621
yo 1620
▁munhu 1615
ver 1612
ck 1611
▁two 1607
S 1606
▁lo 1602
▁te 1596
▁if 1594
▁G 1590
risa 1589
▁Re 1588
C 1587
tsongo 1579
P 1575
▁min 1572
▁information 1571
▁tano 1571
▁xiyenge 1569
▁am 1565
▁its 1565
▁ba 1559
ngu 1557
▁Mu 1557
▁vatirhi 1553
▁vo 1551
▁malembe 1547
ndla 1543
j 1538
▁No 1538
▁out 1533
▁Dzonga 1529
▁You 1522
▁timali 1522
▁them 1519
▁nge 1515
▁matiko 1514
▁ikhonomi 1512
▁t 1505
▁sa 1500
▁kambe 1495
▁D 1493
▁tiyisisa 1492
ns 1491
▁Hikokwalaho 1490
▁loku 1486
▁such 1483
hlo 1480
▁For 1472
v 1471
▁hinkwaswo 1468
▁B 1466
▁matimba 1465
▁! 1464
▁masipala 1463
▁mo 1463
▁way 1459
et 1457
wu 1455
▁want 1453
▁misava 1452
▁O 1446
▁henhla 1440
▁fikelela 1439
▁think 1439
2 1437
▁kota 1437
▁seketela 1437
6 1436
▁di 1435
▁xiviko 1434
▁F 1431
3 1429
▁ve 1428
Dzonga 1426
▁made 1421
▁fi 1417
▁up 1412
▁vaaki 1409
▁but 1408
▁' 1400
weke 1396
▁tlula 1393
▁year 1392
▁kho 1390
▁tiva 1381
▁country 1376
▁question 1376
tic 1374
▁bo 1374
▁number 1374
ting 1366
▁system 1365
▁wun 1363
▁Ndza 1360
▁hava 1357
ga 1356
ry 1356
ary 1354
▁ndhawu 1353
▁6 1349
7 1348
▁b 1348
▁pfuna 1345
ngo 1342
it 1341
▁now 1341
▁my 1339
▁pro 1339
bu 1338
▁They 1337
▁ho 1337
ther 1336
▁ehleketa 1336
leke 1334
▁nhluvukiso 1334
▁know 1333
T 1326
nyi 1323
▁maendlelo 1322
▁eku 1315
▁To 1314
▁milawu 1311
kile 1305
▁only 1301
ndzi 1296
tsa 1294
▁tshemba 1294
▁endlelo 1285
▁hinkwayo 1279
▁service 1279
bo 1276
▁person 1276
▁vutihlamuleri 1272
▁some 1271
▁were 1268
ji 1266
5 1264
rile 1261
8 1255
▁Kambe 1255
▁case 1255
▁vile 1254
▁issue 1253
hle 1252
▁change 1244
▁Nawu 1239
▁Sweswo 1238
▁services 1238
▁into 1237
▁say 1235
4 1230
▁health 1230
▁exikarhi 1228
▁swilo 1227
wo 1224
R 1223
▁xiphemu 1216
riwile 1215
▁mahungu 1209
▁switirhisiwa 1204
fe 1203
laha 1199
▁vote 1199
bi 1197
ir 1197
x 1197
sh 1196
▁good 1195
▁rixaka 1195
eke 1194
▁pfu 1194
il 1193
▁wona 1192
▁ntiyiso 1191
▁therefore 1191
▁tirhisiwa 1188
▁yena 1188
N 1185
▁g 1183
▁part 1179
▁right 1170
mbirhi 1168
▁point 1168
▁As 1166
▁lawa 1165
O 1164
▁fika 1163
cu 1158
▁years 1155
▁place 1153
▁cannot 1152
▁over 1151
lelo 1149
▁many 1149
▁under 1148
▁than 1147
D 1145
nene 1145
ru 1145
▁use 1143
▁dis 1138
▁National 1136
▁well 1133
▁So 1132
▁xiave 1130
▁first 1129
▁masungulo 1129
▁ringana 1128
▁how 1126
▁Ha 1123
ous 1122
ca 1121
▁But 1121
▁fa 1118
▁H 1111
▁tsa 1109
▁provide 1106
▁However 1098
▁handle 1098
cy 1095
um 1093
▁La 1093
▁where 1087
kho 1084
rate 1083
rhi 1083
mbh 1081
tri 1080
▁application 1080
▁rin 1079
rha 1078
▁ehansi 1076
riweke 1074
▁needs 1073
▁He 1070
mbo 1069
▁7 1067
▁K 1066
▁much 1066
▁f 1065
▁tshama 1065
▁Se 1063
▁hinkwavo 1060
▁mati 1059
ure 1057
weni 1052
be 1050
ndzu 1050
▁mani 1050
▁local 1048
▁project 1048
▁endzhaku 1046
tions 1042
▁plan 1042
▁believe 1039
per 1038
▁include 1037
ance 1036
kulu 1036
▁done 1035
▁here 1033
▁wadi 1031
▁policy 1026
▁does 1024
▁ensure 1024
▁sector 1024
▁national 1023
▁Lexi 1022
▁issues 1021
▁members 1021
▁amukela 1016
▁De 1015
▁Ndzawulo 1013
▁social 1013
▁pre 1010
▁en 1009
▁xona 1009
M 1007
▁see 1006
▁Mo 1005
▁problem 1004
▁vuswikoti 1004
zi 1002
▁nt 1001
side 996
▁Pro 995
▁Mfumo 993
▁dyondzo 993
▁van 993
▁hinkwawo 990
rs 989
▁enhlokweni 989
▁swirho 989
▁ngopfu 987
▁xiboho 986
▁Le 981
▁nyikiwa 979
▁matirhelo 976
sela 969
▁10 969
▁Ward 968
▁tindhawu 968
▁po 967
▁tsh 965
ungu 964
▁o 961
at 955
wini 955
▁hetelela 954
▁matter 952
▁action 950
▁role 950
▁economic 949
leni 947
▁siku 947
▁through 947
▁cha 936
▁vana 935
▁against 933
▁19 932
▁being 931
▁yisa 929
rd 926
▁hla 926
▁erivaleni 921
ised 920
▁continue 920
z 919
▁J 918
▁between 917
▁three 915
▁vuxokoxoko 914
xo 913
▁Department 911
▁state 911
ors 910
▁said 910
▁different 909
▁laveka 909
▁8 908
▁nakambe 908
▁each 902
▁business 898
▁end 898
▁antswisa 897
▁municipality 896
dze 895
▁ga 894
▁huma 893
▁xikongomelo 892
▁landza 891
ndza 888
▁xiphiqo 888
▁programme 887
▁hansi 886
nti 885
za 885
▁clear 885
▁help 885
do 883
▁situation 883
▁kumeka 880
isa 879
▁relat 879
▁swilaveko 876
pp 875
age 874
pu 873
▁Parliament 873
▁Rixaka 869
ngani 867
▁m 865
▁khensa 863
ture 862
▁just 860
▁women 860
ities 858
▁hakona 857
▁own 857
▁still 857
▁water 856
ff 855
▁engetela 855
▁used 855
go 854
▁decision 853
▁man 853
▁area 852
▁kombisa 852
gu 850
▁tindlela 850
for 849
ld 849
ty 849
▁Huvo 847
ol 845
▁address 845
▁sp 844
▁when 844
▁And 842
▁Development 842
▁kombela 842
▁tika 842
▁vulavula 842
rm 840
▁regard 840
ile 838
▁Xo 837
▁fe 837
▁swiyenge 837
ic 836
▁areas 834
pha 833
▁mpimo 833
▁9 832
▁rha 832
▁tumbuluxa 832
▁give 831
hweti 828
▁interest 828
▁Let 827
▁same 825
▁terms 825
ate 822
▁phurojeke 821
▁progress 820
▁ehenhla 819
▁rights 819
▁set 819
▁course 818
act 816
▁happen 816
▁mavonelo 815
▁particular 815
▁example 813
▁mafambiselo 813
▁nhlengeletano 813
▁kutani 812
▁get 811
▁20 810
▁dur 810
U 807
▁lavaka 807
out 806
▁Palamende 805
▁committee 805
▁lulamisa 803
▁law 802
▁most 799
▁why 799
the 794
aka 793
▁Council 792
ries 791
▁tiwadi 788
▁bu 785
▁call 785
ant 784
▁fu 784
wina 783
▁Pa 782
▁Naswona 779
▁key 779
▁000 777
▁education 777
▁Con 775
▁W 775
▁leha 775
▁nhlayo 774
cha 773
ist 773
▁ntlawa 772
▁taken 772
khu 769
▁ask 769
▁long 767
▁xivutiso 767
▁deal 766
▁fact 765
▁political 765
▁budget 764
rho 763
▁respect 763
ions 762
▁access 762
▁meeting 762
▁hundza 761
▁planning 761
ful 759
▁bindzu 758
▁those 758
nci 756
L 755
▁% 753
▁look 751
▁vutomi 751
ster 750
▁could 750
▁fanela 748
▁Komiti 747
ness 746
▁nchumu 746
▁famba 745
kisa 744
lwa 744
▁apply 744
▁swiyimo 744
▁shall 743
▁rihanyu 742
▁sta 742
▁per 740
▁Vumbiwa 739
▁Xa 738
▁0 737
▁before 737
▁order 737
▁All 736
▁timfanelo 736
pho 735
▁Committee 733
▁angarhela 733
▁tlhelo 732
▁endlaka 728
▁ntwanano 726
▁pholisi 724
q 722
▁great 722
▁kungu 722
ally 721
hlawu 721
▁migingiriko 721
▁Nhluvukiso 720
nu 719
xini 719
▁answer 719
▁countries 719
nyana 718
▁President 715
▁required 715
▁too 715
▁Vanhu 714
▁effective 714
▁vumbirhi 714
▁nghenelela 713
▁yihi 712
▁Di 710
▁Constitution 709
▁xihatla 709
9 707
▁Kutani 707
▁miehleketo 706
▁market 702
▁swivutiso 702
▁Service 701
▁hope 701
hwa 699
▁komiti 699
▁muganga 699
▁proposal 699
iwa 697
▁had 697
▁financial 696
▁swikongomelo 696
qui 695
▁xivangelo 695
ul 692
▁HIV 692
ral 691
▁implementation 691
▁Co 690
▁Do 690
▁goza 690
▁projects 690
▁Cabinet 689
▁An 688
el 687
▁come 686
nisa 685
▁Khabinete 685
▁mfanelo 685
▁rivaleni 685
▁antswa 684
am 683
▁hlayisa 682
selo 681
telo 681
ze 680
▁khale 680
▁nseketelo 679
▁swakudya 679
▁hakunene 675
▁mabindzu 675
▁management 675
▁bi 674
F 673
lar 672
▁mbuyelo 672
▁children 671
▁hu 671
▁mpfumelelo 671
▁live 669
▁further 668
▁hlamusela 667
ble 666
H 665
▁child 665
▁her 665
mbu 664
▁swiphiqo 661
ela 660
eriwa 658
▁debate 658
▁however 658
▁something 658
▁Minister 657
▁cost 657
▁human 657
▁activities 656
▁Ri 654
▁section 654
▁future 653
▁kuva 652
und 651
▁possible 650
▁xikombiso 650
▁Y 648
▁huvo 648
riso 647
▁department 646
▁hetiseka 645
▁languta 645
▁necessary 645
▁things 645
▁nongonoko 644
ight 643
▁office 643
nya 642
▁Xiyenge 642
▁nhlangano 640
▁specific 640
▁wish 640
▁Government 639
kelo 637
siwile 637
zo 637
▁after 637
▁inter 637
▁muxaka 637
▁court 636
▁ndza 636
▁pu 636
hlu 635
▁eAfrika 635
▁vugevenga 635
▁Tanihi 634
▁group 633
je 632
▁thank 632
kwe 631
▁resources 631
▁view 631
isation 630
▁available 627
▁wihi 627
▁legislation 623
▁training 623
▁agreement 622
▁present 622
▁V 621
▁Commission 620
▁council 620
▁high 620
▁permit 619
▁endle 618
▁play 618
▁focus 617
meri 616
▁means 615
▁namuntlha 615
▁swivangelo 615
▁start 612
▁veka 611
▁second 610
▁allow 609
▁approach 609
▁mitlawa 609
▁reason 608
▁30 607
▁fikele 607
▁world 606
▁account 605
▁including 605
▁she 604
▁Mhaka 603
tla 602
▁12 602
▁imp 601
▁kongoma 600
▁already 599
risi 596
▁tisa 596
cate 593
▁going 592
▁How 591
▁hlangana 590
▁k 590
▁problems 590
▁tlakusa 590
▁performance 589
▁Na 588
▁landzelela 588
▁olova 588
▁Our 587
ntsongo 586
▁certain 586
▁kha 586
pfhumba 585
▁life 585
▁today 584
▁working 584
▁hikokwalaho 581
▁increase 581
em 579
est 579
▁masiku 579
▁step 579
▁points 578
kisi 577
mina 577
▁mikarhi 577
▁questions 577
▁ke 576
▁certificate 575
▁groups 575
▁rec 575
▁xandla 575
nts 574
▁ema 574
▁sisiteme 574
ulu 573
▁Bo 573
ise 572
▁request 572
port 570
ring 570
▁kongomisa 569
K 568
▁challenges 568
▁tekiwa 568
▁basis 567
▁growth 567
▁municipal 567
▁accept 566
▁hinkwato 566
▁participation 565
▁tirhana 565
▁understand 565
B 564
▁level 564
misa 563
▁State 562
▁Sweswi 562
▁miganga 562
▁tiphurojeke 562
▁nkunguhato 561
leriwa 559
ship 559
▁forward 559
▁tipolitiki 559
tlha 557
▁day 556
▁fanelangi 556
▁langute 556
▁tivi 556
▁act 555
▁both 555
▁society 555
▁tekela 555
mela 554
▁did 554
nisiwa 553
▁every 553
ft 552
tara 552
▁Fi 552
▁economy 552
▁pass 551
▁provincial 551
dzi 550
▁koti 550
▁represent 550
ongo 549
▁organisation 548
▁province 546
▁twisisa 546
tela 545
tiwa 545
▁Bill 545
▁given 545
▁mpimanyeto 545
▁pay 545
▁hikwalaho 544
▁test 543
▁vamanana 541
▁crime 540
swi 539
▁Li 539
▁Yi 539
▁better 539
ial 538
ok 538
▁fomo 538
▁rona 537
▁vuhlayiseki 537
▁few 536
kiwa 535
▁communities 535
▁hlaya 534
ine 533
sile 532
▁another 532
▁put 532
▁task 532
▁land 530
▁together 530
▁main 528
tho 527
▁sign 527
phi 526
waka 526
▁amukeriwa 526
que 525
thi 525
▁power 525
▁On 524
▁find 524
▁hambanahambana 524
▁vonaka 524
▁xana 522
tiko 521
▁Min 521
▁improve 520
▁pi 520
▁vulawuri 520
ut 519
▁Ka 518
▁vumbhoni 518
▁ximfumo 518
amu 517
line 517
▁benefit 517
▁member 516
▁official 516
▁agree 513
kwa 512
▁languti 512
nhla 511
▁document 511
▁Masipala 510
▁result 510
thu 509
▁Municipal 509
▁tax 509
▁welcome 509
▁xidemokirasi 509
nder 508
up 508
▁able 508
▁khumba 508
▁responsibility 508
▁sukela 507
laka 506
melo 506
▁Hlamusela 506
▁next 506
▁tra 506
▁L 505
▁final 505
▁name 505
▁trans 505
▁hear 504
▁let 504
▁njhani 504
▁citizens 503
▁hela 503
▁rihanyo 503
ling 502
▁care 502
▁period 501
ndzeni 500
▁magoza 500
hume 499
▁11 499
▁endli 499
▁enough 499
▁hinkwerhu 499
▁ngopfungopfu 499
▁marito 498
▁yimela 498
▁Kho 497
▁comment 497
▁nghenisa 497
▁tikomiti 497
▁Ntirho 496
▁SA 496
▁committees 496
▁etikweni 496
▁measures 496
leswi 495
▁hunguta 495
▁last 495
▁provided 495
kela 493
▁consider 493
▁employee 493
▁gra 492
▁hand 492
▁swiboho 492
tirhi 491
▁food 491
G 490
▁date 490
▁provision 489
▁affect 488
▁difficult 488
▁international 488
▁product 488
▁detail 487
▁gezi 487
▁pfumelela 487
▁swimbirhi 487
▁pha 486
▁procedure 486
▁hakela 485
▁sub 485
▁subject 485
fo 484
ght 484
▁2011 484
▁complete 484
▁pe 484
▁achieve 483
▁legal 483
▁relevant 483
▁At 482
▁Tikomiti 482
▁tirhi 482
rhu 481
▁timbirhi 480
yisa 478
▁Nhlangano 478
▁Public 478
▁back 478
▁data 478
▁vekiwa 478
olo 477
▁Wadi 477
▁solution 477
▁nghena 476
▁programmes 476
▁real 476
▁create 475
▁money 475
bility 474
▁purpose 474
▁share 474
▁ntirhisano 473
▁objectives 473
▁prepar 472
▁vutivi 472
▁infrastructure 471
▁Milawu 470
▁hlanganisa 470
▁vuriwa 470
▁vuti 470
▁grant 469
▁lu 469
▁vun 469
un 468
▁makungu 468
▁ntsengo 468
▁open 468
▁general 467
▁aim 466
▁opportunity 466
▁value 466
visi 465
▁fambisa 465
▁vuxaka 465
own 464
▁Timhaka 464
dies 463
ification 463
khe 463
▁current 463
▁skills 463
▁tihakelo 463
siweke 462
▁delivery 461
99 460
▁reasons 460
▁lawula 459
▁promote 459
▁talk 459
ified 458
▁democracy 458
▁tihlanganisa 458
ory 457
▁Swa 457
▁exist 457
▁energy 455
▁close 454
nda 453
om 453
▁review 453
▁swipimelo 452
▁vumba 452
▁lavekaka 451
tshunx 450
▁farm 450
▁record 450
▁vhoti 450
▁vuleteri 450
tive 449
▁import 449
▁post 449
▁wolowo 449
▁xirho 448
▁show 447
W 446
ern 446
▁Khomixini 445
▁hlawuleka 445
▁Ba 444
▁kambela 444
▁registration 443
▁again 442
▁hanya 442
▁mutirhi 442
▁quality 442
▁sirhelela 441
hungu 440
loko 440
yisi 440
▁far 440
▁vhota 440
▁16 439
▁months 439
▁small 439
▁xiswona 439
▁Misava 438
▁safety 438
anye 437
▁inform 437
▁rate 436
▁Xikombelo 435
▁common 434
▁control 434
▁komba 434
▁tikho 434
▁xexo 434
▁days 433
▁mphakelo 433
▁read 433
▁security 433
▁speak 433
▁Holobye 432
▁even 432
▁vumbiwa 432
▁Ye 431
▁job 431
▁move 431
▁voni 431
▁basic 430
▁past 430
▁structure 430
▁xikarhi 430
▁become 429
▁language 428
▁sivela 428
▁swiphemu 428
pt 427
▁list 427
▁poor 427
▁When 426
▁vuye 426
ringanyeto 425
ical 424
▁challenge 424
▁doing 424
▁environment 424
▁fo 424
▁St 423
▁least 423
▁police 423
▁road 423
▁Nawumbisi 422
▁tirhaka 422
SA 421
▁direct 421
▁hambi 421
▁non 421
▁mean 420
▁mambirhi 419
▁vadyondzi 419
▁register 418
▁school 418
▁vehicle 418
▁Hikwalaho 417
▁kwihi 417
▁mp 417
over 416
▁15 415
▁full 414
▁xilaveko 414
▁hundzi 413
▁responsible 413
▁xivandla 413
▁First 412
▁tekeriwa 412
▁trade 412
im 411
▁1998 411
▁Mitirho 411
▁Some 411
▁hlamula 411
▁serious 411
▁success 411
ession 410
▁assist 410
▁hoxa 410
▁hundzulux 410
▁matshalatshala 410
ism 409
▁Leyi 409
▁discussion 409
▁follows 409
▁hlawula 409
▁manage 409
▁Vi 408
▁special 408
▁rhumela 407
▁xileriso 407
cation 406
▁event 405
▁hofisi 405
▁lowukulu 405
▁short 405
▁ntolovelo 404
▁position 404
▁resolution 404
▁tava 404
bye 403
▁line 403
▁approved 402
▁langutisa 402
▁w 402
▁Assembly 400
▁activity 400
▁hikuva 400
▁mbangu 400
▁nhlamulo 400
▁Committees 399
▁effort 399
▁sc 399
▁xivumbeko 399
khanselara 398
▁involved 398
▁private 398
lt 396
vhi 396
▁protect 396
V 395
▁ximunhu 395
mb 394
▁2013 394
▁poverty 394
mm 393
▁14 393
▁contact 393
▁veke 393
nharhu 392
nk 392
op 392
▁Be 392
▁endlela 392
▁essential 392
▁industry 392
▁tirhisana 392
▁Lo 391
▁because 391
▁conditions 391
▁effect 391
▁appropriate 390
▁kombisi 390
▁licence 389
▁ndzawulo 389
▁opportunities 389
▁outcome 389
▁tla 389
▁employment 388
▁municipalities 388
▁prevent 388
▁Swirho 387
▁transport 387
▁Tiko 386
▁pfuneta 386
▁Health 385
▁biha 385
▁institution 385
▁million 385
▁rhe 385
of 384
tshe 384
▁hundzeke 384
▁Application 383
▁Presidente 383
▁regulation 383
▁vurimi 383
▁mihlangano 382
▁plans 382
ngiki 381
term 381
▁khu 381
ak 380
tlu 380
▁18 380
▁1994 380
▁home 380
tivi 379
▁pfumelelana 379
▁protection 379
▁fee 378
ative 377
▁Cape 377
▁turn 377
ability 376
▁four 376
▁sure 376
▁Cha 375
▁framework 375
▁needed 375
▁thing 375
▁2010 374
▁baby 374
▁global 374
▁makete 374
▁nhundzu 374
phu 373
▁Fa 373
▁dyondza 373
▁five 372
▁hluvuk 372
▁mpfuneto 372
▁tumbuluxiwa 372
▁vavasati 372
mile 370
woleswo 370
yela 370
▁2000 370
▁My 370
▁building 370
▁dinga 370
▁nhlayiso 370
▁vantshwa 369
tch 368
▁experience 368
▁twa 368
▁xibalo 368
▁Nhlengeletano 367
▁free 367
▁investment 367
▁ntlhanu 367
▁rimbewu 367
though 366
▁Xiviko 366
▁fambelana 366
▁jobs 366
▁teke 366
rious 365
▁broad 365
▁target 365
▁vumundzuku 365
▁Timali 364
▁councillor 364
▁humesa 364
▁table 364
less 363
▁directive 363
▁initiative 363
▁tsala 363
▁idea 362
▁lead 362
▁minongonoko 362
▁qu 362
▁Vukorhokeri 361
▁aware 361
▁capacity 361
▁engetele 361
▁institutions 361
▁parent 361
▁results 361
▁term 361
hakeri 360
▁X 360
▁conduct 360
▁kusuhi 360
▁maphorisa 360
▁tivisa 360
▁tlhele 360
▁Hambi 359
▁Mati 359
▁Trans 359
▁based 359
▁che 359
▁large 359
▁matters 359
▁rest 359
▁major 358
▁positive 358
▁Director 357
▁communication 357
▁endlile 357
▁impact 357
▁opinion 357
▁ringeta 357
▁vusweti 357
loye 356
▁disc 356
▁meetings 356
▁phase 356
▁remain 356
▁thoriwa 356
▁fikela 355
isi 354
▁amendments 354
▁aspect 354
▁assessment 354
▁low 354
▁tinxaka 354
▁vonelo 354
▁attention 353
▁car 353
▁statement 353
▁vhote 353
▁vuvekisi 353
▁cause 352
▁Phuresidente 351
▁herisa 351
▁employer 350
▁labour 350
▁matirhiselo 349
▁young 349
ana 348
▁Section 348
▁Wa 348
▁accord 348
▁develop 348
▁fikeleriwa 348
▁function 348
▁bring 347
▁face 347
▁kwalomu 347
▁swoleswo 347
▁tinhlengeletano 347
ob 346
▁Laha 346
▁yima 346
▁simeka 345
▁Tiwadi 344
▁achieved 344
▁workers 344
▁Maendlelo 343
▁fail 343
▁favour 343
▁making 343
▁Dyondzo 342
▁hl 342
▁really 342
▁2005 341
▁best 341
▁correct 341
▁income 341
▁simekiwa 341
ising 340
qua 340
risiwa 340
▁AIDS 340
▁completed 340
▁khoto 340
▁commitment 339
▁partnership 339
▁risk 339
tical 338
▁election 338
▁swikombiso 338
▁tirhe 338
ating 337
lweni 337
▁Hakunene 337
▁Plan 337
General 336
wards 336
▁attend 336
▁boha 336
▁concerns 336
▁found 336
▁importance 336
▁rapporteur 336
▁requirements 336
▁strategy 336
▁vumaki 336
▁whe 336
▁navela 335
▁representative 335
▁vuvabyi 335
20 334
quite 334
vulavuri 334
▁Vo 334
▁decide 334
▁down 334
▁nkateko 334
▁Matiko 333
▁levels 333
ndzela 332
pfun 332
▁Ko 332
▁Xikongomelo 332
▁principle 332
▁xihi 332
chi 331
tse 331
▁amount 331
▁humelele 331
▁lavi 331
▁media 331
▁always 330
▁mune 330
▁Of 329
▁refer 329
ify 328
yini 328
▁discuss 328
▁especially 328
▁khoma 328
▁parties 328
▁tinharhu 328
▁Kha 327
▁Q 327
▁Vaaki 327
▁xik 327
▁khumbeka 326
▁response 326
▁vutshunguri 326
▁nsirhelelo 325
▁xikolo 325
▁ehandle 323
▁involve 323
▁layisense 323
▁muholo 323
▁type 323
▁Nkarhi 322
▁exi 322
▁individual 322
▁less 322
▁fanelanga 321
isiwa 320
▁build 320
▁reduce 320
▁registered 320
▁week 320
▁whole 320
ize 319
vela 319
▁Comp 319
▁Europe 319
▁among 319
▁link 319
▁tiyisa 319
▁words 319
▁Xiyimo 318
▁require 318
ies 316
▁Expla 316
▁add 316
▁mind 316
▁processes 316
▁tiphesente 316
mpfu 315
▁hamban 314
▁nandzu 314
▁functions 313
▁humesiwa 313
▁subsection 313
man 312
vevukisi 312
▁above 312
▁cover 312
▁documents 312
▁hungu 312
▁partner 312
gue 311
▁Vatirhi 311
▁endliwile 311
▁keep 311
▁pfumala 311
▁tiyisisi 311
ress 310
▁With 310
▁vutisa 310
▁yet 310
referred 309
tha 309
▁Nongonoko 309
▁schools 309
matikweni 308
▁follow 308
▁vuyerisa 308
tekaxiave 307
▁40 307
▁By 307
▁contain 307
▁encourage 307
▁katsiwa 307
▁mitlhontlho 307
ough 306
▁household 306
▁operation 306
▁pfumaleka 306
▁please 306
nyu 305
▁koteka 305
▁significant 305
▁strengthen 305
▁tirhisiwaka 305
▁total 305
▁visit 305
uty 304
▁foreign 304
▁issued 304
▁Tata 303
▁boxa 303
▁eneji 303
▁limit 303
▁ntumbuluko 303
▁tiya 303
▁Republic 302
▁mbango 302
▁ndzhawu 302
▁percent 302
▁priorities 302
▁successful 302
day 301
▁13 301
▁Dep 301
▁draw 301
▁month 301
▁safe 301
▁tirhisi 301
Z 300
yeni 300
▁fish 300
▁langutana 300
▁research 300
▁rhandza 300
▁vito 300
▁ID 299
▁centre 299
▁lwisana 299
▁meet 299
▁old 299
DP 298
▁complain 298
▁elect 298
▁join 298
▁laya 298
▁nghingiriko 298
▁rules 298
▁disease 297
▁lot 297
▁participate 297
▁priority 297
▁Local 296
▁One 296
▁established 296
▁fight 296
▁implement 296
▁landzeleri 296
▁letter 296
▁ndz 296
▁pima 296
▁submit 296
tsundzuxo 295
▁feel 295
▁olovi 295
▁principles 295
▁since 295
▁Lowu 294
▁Office 294
▁Programme 294
▁learners 294
▁freedom 293
▁respond 293
▁third 293
▁Kungu 292
▁authority 292
▁fanaka 292
▁hatlisa 292
▁remains 292
▁serve 292
▁brief 291
▁ndyangu 291
▁payment 291
▁requires 291
▁vatatana 291
▁Xikombiso 290
▁agenda 290
▁rimba 290
▁swivandla 290
▁taking 290
▁design 289
▁mfikelelo 289
▁personal 289
▁xifundzhankulu 289
▁humelelaka 288
▁improvement 288
▁rural 288
▁swikombelo 288
▁amendment 287
▁contribute 287
▁fambelanaka 287
▁held 287
▁swikolo 287
▁deliver 286
▁gender 286
▁lulamisiwa 286
▁swivilelo 286
▁vunharhu 286
▁xikan 286
pulani 285
▁hakeriwa 285
▁hambiswiritano 285
▁material 285
▁matimu 285
▁nghenisiwa 285
▁offer 285
▁practice 285
▁stage 285
▁true 285
▁Mafambiselo 284
▁received 284
▁rhula 284
▁tsalwa 284
▁hluvukisa 283
▁reach 283
▁unit 283
012 282
▁khomiwa 282
▁moya 282
ngwa 281
▁method 281
▁nhlamuselo 281
▁team 281
vha 280
▁Education 280
▁company 280
▁standards 280
njhekanjhekisano 279
winyi 279
▁concerned 279
▁developed 279
▁intend 279
▁peace 279
while 278
▁2009 278
▁antswisiwa 278
▁democratic 278
▁funds 278
▁langutisisa 278
▁mambe 278
▁depend 277
▁nhlawulo 277
▁policies 277
▁tshami 277
▁nothing 276
▁party 276
▁tshembha 276
▁kanetana 275
▁khome 275
▁tlheri 275
ndzhu 274
▁contribution 274
▁x 274
& 273
based 273
rhela 273
▁humelerisa 273
▁vekiweke 273
▁21 272
▁Community 272
▁Sub 272
▁analysis 272
▁copy 272
▁death 272
▁learn 272
▁mindyangu 272
▁tidyondzo 272
30 271
▁grow 271
▁often 271
▁yaleyo 271
▁monitoring 270
▁strong 270
▁xiviri 270
▁youth 270
▁kind 269
▁langutela 269
▁movha 269
▁Now 268
▁balance 268
▁explain 268
▁obtain 268
▁emisaveni 267
▁pfumela 267
▁yisiwa 267
tatimende 266
▁SARS 266
▁electricity 266
▁introduc 266
▁lamanene 266
▁stand 266
▁family 265
▁lwa 265
▁tsandzeka 265
▁17 264
▁katsi 264
▁mivuyelo 264
▁pfumeleriwa 264
▁receive 264
▁return 264
▁ringanela 264
▁below 263
▁critical 263
▁kamberiwa 263
▁objective 263
▁officer 263
▁reform 263
▁seen 263
▁tiyimisela 263
kambelo 262
▁author 262
▁clearly 262
▁included 262
▁swiharhi 262
ja 261
▁Timfanelo 261
▁Work 261
▁extreme 261
▁Nyika 260
▁demand 260
▁mark 260
▁xifundzankulu 260
▁collect 259
▁constitution 259
▁endliweke 259
▁expected 259
▁identified 259
▁proper 259
▁supply 259
▁Ho 258
▁adopt 258
▁crisis 258
▁men 258
▁nomboro 258
▁Endlelo 257
▁Many 257
▁Other 257
▁identify 257
▁mavandla 257
endli 256
▁24 256
▁Batho 256
▁annual 256
▁conflict 256
▁fundamental 256
▁hold 256
▁mamiliyoni 256
▁ndzavisiso 256
▁tipholisi 256
avanyisa 255
▁nhlokomhaka 255
▁stop 255
▁element 253
▁intervention 253
▁sustainable 253
iweke 252
▁2003 252
▁Affairs 252
▁drive 252
▁hinkwaro 252
▁khombo 252
▁living 252
rhumiwa 251
▁Endzhaku 251
▁Pele 251
▁medical 251
▁nyike 251
▁six 251
▁tirhela 251
mende 250
▁Therefore 250
▁administration 250
▁concern 250
▁endleka 250
▁environmental 250
▁reflect 250
▁text 250
gricultural 249
▁cap 249
▁lokukulu 249
▁kanela 248
▁nkarhinyana 248
▁Fund 247
▁abuse 247
▁export 247
▁lulamise 247
▁mimbuyelo 247
▁proof 247
▁vuhlanganisi 247
nyingi 246
tumbulux 246
▁express 246
▁motor 246
▁xihlawuhlawu 246
▁2004 245
▁gentlemen 245
▁house 245
▁mimovha 245
▁produce 245
▁suggest 245
▁swinharhu 245
hlovo 244
ttle 244
▁nhluvuko 244
▁treatment 244
▁tsaris 244
▁Social 243
▁hlayis 243
▁Members 242
▁Unit 242
▁consideration 242
▁consist 242
▁expect 242
▁hard 242
▁kunguhata 242
▁vululami 242
uch 241
▁Nakambe 241
▁Ndz 241
▁animal 241
▁fambi 241
▁price 241
▁swikili 241
▁tindlu 241
▁vuyeriwa 241
ably 240
▁Swo 240
▁amukeleki 240
▁rhumeriwa 240
▁tinhlayo 240
credit 239
hangalasi 239
keke 239
▁Where 239
▁ajenda 239
▁establish 239
▁heta 239
▁launch 239
▁papila 239
▁sha 239
▁tindzawulo 239
▁twala 239
50 238
▁Management 238
▁never 238
▁paid 238
▁tirhise 238
hundzul 237
▁Part 237
▁Thank 237
▁implemented 237
▁mentioned 237
▁vuntshwa 237
▁xifundza 237
ordinat 236
tter 236
▁easy 236
▁ncini 236
▁staff 236
hlanganisi 235
▁Endla 235
▁context 235
▁madzolonga 235
▁vatswari 235
▁vurile 235
Afrika 234
▁Holobyenkulu 234
▁Pholisi 234
▁cooperation 234
▁endleni 234
10 233
▁Handle 233
▁applies 233
▁mention 233
ology 232
▁2001 232
▁Finally 232
▁box 232
▁considered 232
▁developing 232
▁due 232
▁languteriwa 232
▁leyikulu 232
▁plant 232
▁run 232
▁tshikelela 232
▁2014 231
▁Munhu 231
▁around 231
▁hlawuriwa 231
▁little 231
▁muviki 231
koxo 230
▁cinci 230
▁identity 230
▁previous 230
▁reality 230
▁tindzimi 230
▁vision 230
▁60 229
▁appoint 229
▁lexikulu 229
▁try 229
▁ye 229
ndzha 228
▁birth 228
▁du 228
▁either 228
▁fair 228
▁hlayisiwa 228
▁learning 228
▁simply 228
▁wrong 228
▁TB 227
▁adopted 227
▁art 227
▁fully 227
▁kotekaka 227
▁ririmi 227
▁Court 226
▁lack 226
▁ndzingano 226
▁difference 225
▁twi 225
▁vaakitiko 225
▁voting 225
▁consumer 224
▁facilitator 224
▁sungurile 224
tandzhaku 223
▁NCOP 223
▁equal 223
▁nyiketa 223
▁soon 223
▁treat 223
▁vufambisi 223
▁yeleyo 223
▁Vuxokoxoko 222
▁avelana 222
kunguhati 221
▁head 221
▁matsalwa 221
▁minhlangano 221
▁switirho 221
▁tikomba 221
▁vundzeni 221
▁Hofisi 220
▁actual 220
▁charge 220
▁confirm 220
▁contract 220
▁engage 220
▁measure 220
▁muthori 220
▁property 220
▁submitted 220
▁vurhangeri 220
▁written 220
▁Identify 219
▁longer 219
▁ndlandlamuxa 219
▁tiveka 219
▁violence 219
▁choice 218
▁maintenance 218
▁nyikiweke 218
▁proposed 218
▁vatirhisi 218
▁win 218
logical 217
▁50 217
▁citizen 217
▁emerg 217
▁itself 217
▁nyiki 217
▁simeki 217
▁stakeholders 217
▁swibumabumelo 217
▁People 216
▁Vamanana 216
▁agreed 216
▁direction 216
▁exercise 216
▁pasisiw 216
▁population 216
▁rh 216
▁source 216
▁tsakile 216
▁vaakatiko 216
▁assistance 215
▁enable 215
▁strategic 215
▁xitalo 215
▁xitifikheti 215
58 214
▁Com 214
▁Mahungu 214
▁discussed 214
▁entirhweni 214
▁funding 214
▁improved 214
▁page 214
▁2007 213
▁civil 213
▁crucial 213
▁majority 213
▁swiviko 213
▁vuyimeri 213
▁knowledge 212
▁tikweni 212
▁kholwa 211
▁kwalaho 211
▁nghozi 211
▁swonghasi 211
▁teacher 211
nfortunately 210
▁bank 210
▁body 210
▁comply 210
▁neare 210
▁notice 210
▁nyiketiwa 210
▁ourselves 210
▁seek 210
▁vayimeri 210
ndependent 209
rojeke 209
vhe 209
▁emakumu 209
▁highlight 209
▁housing 209
▁justice 209
▁maqhinga 209
▁minutes 209
▁nxaxamelo 209
▁strategies 209
▁varhangeri 209
pfhuka 208
▁Go 208
▁capital 208
▁else 208
▁mahala 208
▁maintain 208
▁matlhelo 208
▁ntshikelelo 208
▁recent 208
▁resolve 208
▁tlangela 208
▁book 207
▁corruption 207
▁ntokoto 207
▁raise 207
▁2012 206
▁Inter 206
▁Lembe 206
▁fambisana 206
▁letela 206
▁levhele 206
▁ntsakelo 206
▁potential 206
▁vhiki 206
▁2008 205
▁addition 205
▁emphasis 205
▁mavabyi 205
▁nxungeto 205
tshamo 204
▁25 204
▁allocated 204
▁campaign 204
▁hlangani 204
▁landzelerisa 204
▁participants 204
▁vulavisisi 204
▁xinawu 204
▁xivono 204
▁After 203
▁Siku 203
▁committed 203
▁message 203
▁ololoxa 203
▁tshembi 203
▁twisiseka 203
▁website 203
▁yelana 203
ondzo 202
responsibilities 202
▁Khoto 202
▁applicable 202
▁consultation 202
▁everyone 202
▁evidence 202
▁indicate 202
▁natural 202
▁option 202
▁origin 202
▁perform 202
▁prescribed 202
▁proceed 202
▁rhangela 202
▁swinawana 202
▁xitshunxo 202
Y 201
fundzha 201
tswari 201
▁KNP 201
▁More 201
▁fall 201
▁fanerile 201
▁khume 201
▁mphikizano 201
▁ndzimana 201
▁tsakisa 201
▁unemployment 201
communica 200
▁Why 200
▁Xivutiso 200
▁celebrat 200
▁creation 200
▁evaluation 200
▁facilitat 200
▁hlamuseriwa 200
▁hlohlotela 200
▁kaneriw 200
▁region 200
▁thekinoloji 200
▁urge 200
WA 199
ective 199
▁Form 199
▁dyondz 199
▁indeed 199
▁kanakana 199
▁lawuriwa 199
▁ntsariso 199
▁technology 199
▁velekiwa 199
▁Board 198
▁commission 198
▁custom 198
▁higher 198
▁hours 198
▁komberiwa 198
▁moment 198
▁simekiweke 198
▁sw 198
▁ten 198
▁thola 198
▁Ntlawa 197
▁hlayanyana 197
▁koteki 197
▁ngheni 197
▁nyimpi 197
▁paragraph 197
xiyaxiy 196
▁100 196
▁check 196
▁draft 196
▁enter 196
▁field 196
▁internal 196
▁kaneta 196
▁manharhu 196
▁permanent 196
▁renew 196
▁tikh 196
mark 195
▁Any 195
▁World 195
▁compromise 195
▁tsariwa 195
xopaxop 194
▁Registrar 194
▁absolute 194
▁amend 194
▁continent 194
▁guide 194
▁lemuka 194
▁miako 194
▁ntalo 194
▁professional 194
▁technical 194
▁xiyengentsongo 194
duction 193
▁System 193
▁Xinawana 193
▁muthelo 193
▁ntshamiseko 193
▁tsundzuxa 193
▁antswi 192
▁determined 192
▁manner 192
▁mpfuno 192
▁tell 192
kombiso 191
phikiza 191
▁2006 191
▁Namuntlha 191
▁culture 191
▁mintlhontlho 191
▁status 191
▁tivisiwa 191
▁valid 191
29 190
purasi 190
senthara 190
▁black 190
▁concept 190
▁continu 190
▁hlanganisiwa 190
▁hlela 190
▁immediate 190
▁lulamile 190
▁monitor 190
▁nsinya 190
▁providing 190
▁rhijisitara 190
▁threat 190
urhangeri 189
▁75 189
▁Who 189
▁active 189
▁determine 189
▁swifundzankulu 189
▁undertake 189
nkwerhu 188
thekiniki 188
▁1996 188
▁2002 188
▁achievement 188
▁avoid 188
▁later 188
▁mfuwo 188
▁trust 188
▁twanana 188
▁victim 188
mfumo 187
▁Xiphemu 187
▁matirhele 187
▁tirheni 187
▁tlakuka 187
11 186
kamberi 186
quality 186
▁Swikongomelo 186
▁Today 186
▁aid 186
▁appear 186
▁compete 186
▁promot 186
▁tshika 186
▁content 185
▁nkambelo 185
okodela 184
tlhe 184
▁Yuropa 184
▁assess 184
▁big 184
▁ensuring 184
▁komisa 184
▁minkarhi 184
▁ntlhontlho 184
▁regional 184
▁tlanga 184
▁vusirheleri 184
* 183
▁Secondly 183
▁chayela 183
▁lahlek 183
▁rejistara 183
▁tumbuluxiw 183
tention 182
▁Complete 182
▁International 182
▁simple 182
▁station 182
▁swiletelo 182
▁vukheta 182
▁extend 181
▁governance 181
▁production 181
▁tsevu 181
kunguhato 180
palux 180
seketeri 180
▁Mandela 180
▁circumstances 180
▁claim 180
▁conclusion 180
▁cycle 180
▁distribut 180
▁etlhelo 180
▁nghenela 180
▁regular 180
▁until 180
▁Home 179
▁Switirhisiwa 179
▁climate 179
▁figure 179
▁single 179
▁tsundzuka 179
15 178
dokumende 178
▁Kombis 178
▁across 178
▁connect 178
▁efficient 178
▁makumu 178
▁outline 178
▁recommendations 178
▁several 178
▁vamasipala 178
▁vutleketli 178
▁Project 177
▁advance 177
▁class 177
▁mahanyelo 177
▁urgent 177
▁Over 176
▁Zuma 176
▁extent 176
▁lahlekeriwa 176
▁navelela 176
▁observ 176
▁papalata 176
▁pfuniwa 176
▁tiph 176
▁Goza 175
▁Speaker 175
▁Tirhisa 175
▁applicant 175
▁kongomisiwa 175
▁tiawara 175
▁xivilelo 175
sayense 174
▁Municipality 174
▁executive 174
▁leadership 174
▁nyany 174
▁study 174
▁timasipala 174
▁tinyiketela 174
▁travel 174
▁Guide 173
▁Nhlayo 173
▁Ntwanano 173
▁creat 173
▁duty 173
▁kongomisi 173
making 172
▁Chapter 172
▁Ndlela 172
▁away 172
▁enhance 172
▁equipment 172
▁khumbheka 172
▁makaya 172
▁ndhavuko 172
▁ntikelo 172
▁themselves 172
ndustrial 171
▁leaders 171
▁sense 171
▁unacceptable 171
▁vunyingi 171
▁wide 171
amukerile 170
dyambu 170
▁House 170
▁conference 170
▁congratulate 170
▁humelerile 170
▁leave 170
▁pfuxeta 170
▁standard 170
▁xiletelo 170
▁Nghingiriko 169
▁Please 169
▁amukeleka 169
▁appeal 169
▁appointment 169
▁consult 169
▁count 169
▁dyondzisa 169
▁hileswaku 169
▁hlengeleta 169
▁inspect 169
▁instrument 169
▁schedule 169
iyamu 168
▁High 168
▁Rihanyo 168
▁Women 168
▁association 168
▁ekhoto 168
▁expand 168
▁herisiwa 168
▁legislature 168
▁nhlanganelo 168
▁sunguleni 168
▁vutshila 168
▁1997 167
▁Planning 167
▁complex 167
▁light 167
▁reject 167
▁seketeriwa 167
▁swimila 167
▁upon 167
▁xixima 167
lavisisi 166
▁Matirhelo 166
▁careful 166
▁cinciwa 166
▁doroba 166
▁organ 166
▁practical 166
▁qhinga 166
▁release 166
hlamuselo 165
▁Hinkwaswo 165
▁Manan 165
▁Tshwane 165
▁additional 165
▁indicators 165
▁model 165
▁oppos 165
▁tools 165
▁tshiki 165
▁writing 165
dministrative 164
▁Give 164
▁Mbuyelo 164
▁consequence 164
▁dispute 164
▁hoyozela 164
▁mbulavurisano 164
▁mimpimo 164
▁relationship 164
▁student 164
▁vutshamo 164
▁Every 163
▁Mufambisi 163
▁Training 163
▁humeleris 163
▁khutaza 163
▁ntshunxeko 163
▁xihoxo 163
▁Miganga 162
▁Vaakindhawu 162
▁ground 162
▁investigat 162
▁mbilu 162
▁nxavo 162
▁rhangisiwa 162
▁tingana 162
▁tiyimiserile 162
▁xinawana 162
sirheleri 161
▁breast 161
▁ehleketi 161
▁listen 161
▁marriage 161
▁mbulavulo 161
▁sport 161
▁transparency 161
[ 160
▁Economic 160
▁Mabindzu 160
▁Special 160
▁While 160
▁begin 160
▁beginning 160
▁guidelines 160
▁invest 160
▁linkage 160
▁xitiviso 160
▁Vurimi 159
▁clinic 159
▁conclude 159
▁mechanism 159
▁ndlandlamuk 159
▁occur 159
▁recommend 159
▁ringanyeta 159
▁thyaka 159
000 158
▁Centre 158
▁Executive 158
▁Human 158
▁Information 158
▁Justice 158
▁Union 158
▁break 158
▁danger 158
▁doubt 158
▁establishment 158
▁hlayiseka 158
▁kambisisa 158
▁mpfumaleko 158
▁negotiations 158
afrika 157
ferense 157
vabyi 157
▁Water 157
▁competition 157
▁happy 157
▁phakela 157
▁separate 157
ntshunxo 156
struction 156
tsundzuxi 156
▁Rights 156
▁etc 156
▁legislati 156
▁mandate 156
▁mavito 156
▁sufficient 156
▁swirhangana 156
pfuxeto 155
▁criminal 155
▁multi 155
▁pheji 155
▁resource 155
] 154
iphabliki 154
▁Nkoka 154
▁criteria 154
▁investigation 154
▁matikoxikaya 154
▁miholo 154
▁repeat 154
▁ringanyeti 154
▁swifundzhankulu 154
▁tinyik 154
▁facilities 153
▁paper 153
▁succeed 153
▁transfer 153
endleko 152
tlhontlh 152
▁Provincial 152
▁andlala 152
▁tihlampfi 152
▁vathori 152
▁xavisa 152
▁xitirho 152
pfumelelo 151
▁Nkwama 151
▁companies 151
▁entire 151
▁external 151
▁history 151
▁mahlweni 151
▁phurogireme 151
▁tiyimela 151
tliliniki 150
▁Agriculture 150
▁Maphorisa 150
▁SAPS 150
▁increasing 150
▁khumbha 150
▁nghene 150
▁pfala 150
▁tindzhawu 150
aleyo 149
▁Discuss 149
▁delegate 149
▁domestic 149
▁expenditure 149
▁guarantee 149
▁hlawuriweke 149
▁organise 149
▁reference 149
▁rule 149
▁vukati 149
tiyisiso 148
▁Ikhonomi 148
▁boheka 148
▁hluleka 148
▁khampani 148
▁misinya 148
▁sunguriwa 148
▁tlule 148
operative 147
▁Vulawuri 147
▁enawini 147
▁lulama 147
▁secret 147
▁sphere 147
▁swimakiwa 147
part 146
xikarhi 146
▁East 146
▁Limpopo 146
▁Police 146
▁Rihanyu 146
▁announce 146
▁audit 146
▁everything 146
▁proportion 146
▁thori 146
having 145
▁Chairperson 145
▁Jac 145
▁Mutirhi 145
▁construction 145
▁matikhomelo 145
▁pfumelel 145
fapfarhut 144
lawuri 144
stitution 144
▁ahead 144
▁maphepha 144
▁mitlangu 144
▁primary 144
▁residents 144
▁substance 144
construct 143
ekitara 143
▁500 143
▁Mulawuri 143
▁Nomboro 143
▁district 143
▁milandzu 143
▁mundzuku 143
▁providers 143
▁tifomo 143
▁tisola 143
body 142
chumu 142
isiteme 142
print 142
univhesiti 142
xunget 142
▁Mpimanyeto 142
▁Ntirhisano 142
▁lulamisi 142
▁minimum 142
▁tourism 142
▁yingisela 142
tswalo 141
▁Mbulavulo 141
▁alternative 141
▁define 141
▁driving 141
▁empower 141
▁maendlele 141
▁vukhale 141
hundzuluxi 140
▁Free 140
▁Protect 140
▁behalf 140
▁excellent 140
▁formula 140
▁kayivela 140
▁nyikiwile 140
▁portfolio 140
▁riqingho 140
▁tinhlampfi 140
▁SADC 139
▁Vuswikoti 139
▁abstain 139
▁leswo 139
▁Gauteng 138
▁Report 138
▁acknowledge 138
▁angula 138
▁carry 138
▁duties 138
▁input 138
▁mafumelo 138
▁ntlangu 138
▁swisiwana 138
▁tinyungubyisa 138
▁vukhongeri 138
dzana 137
▁Amendment 137
▁Ndhawu 137
▁Regulation 137
▁Xiletelo 137
▁billion 137
▁board 137
▁central 137
▁component 137
▁drug 137
▁facing 137
▁remove 137
▁xirhangana 137
kulukumba 136
operation 136
▁Integrated 136
▁Manager 136
▁Phurojeke 136
▁Policy 136
▁Trade 136
▁Xipikara 136
▁early 136
▁fambisiwa 136
▁hetisa 136
▁kondletela 136
▁perspective 136
▁rhekhodo 136
▁solve 136
▁timakete 136
▁vital 136
▁vumunhu 136
▁yoleyo 136
▁Day 135
▁Facilitat 135
▁Finance 135
▁Hileswaku 135
▁Makungu 135
▁Register 135
▁Security 135
▁deep 135
▁enterprise 135
▁hinkwako 135
▁hospital 135
▁nhloko 135
▁susumet 135
▁traditional 135
▁workplace 135
navetis 134
pfuneto 134
▁Even 134
▁afford 134
▁anything 134
▁finance 134
▁humesi 134
▁integration 134
▁mavhiki 134
▁nkanerisano 134
sirhelelo 133
▁April 133
▁VAT 133
▁certifi 133
▁overall 133
▁tinhlamulo 133
erhaps 132
ngopfu 132
▁Refer 132
▁Vuhlayiseki 132
▁applied 132
▁categories 132
▁hlula 132
▁ntlimbo 132
▁settlement 132
▁switiviwa 132
▁tiboha 132
▁xihundla 132
kambisiso 131
rought 131
▁clean 131
▁hangalasa 131
▁ndzhaka 131
▁worth 131
▁xitirhisiwa 131
▁yindlu 131
miliyoni 130
standing 130
vandlanene 130
▁About 130
▁Each 130
▁Phurogireme 130
▁efficiency 130
▁hlangane 130
▁khamphani 130
▁mfungho 130
▁sirheleriwa 130
▁stress 130
▁tinhundzu 130
nkota 129
▁Example 129
▁Khotavuxika 129
▁Schedule 129
▁Tindhawu 129
▁attach 129
▁beneficia 129
▁built 129
▁heteleleni 129
▁maxelo 129
▁mikateko 129
▁nyama 129
▁prioritise 129
giving 128
kongomiso 128
▁Bank 128
▁accountability 128
▁approval 128
▁enelangi 128
▁influence 128
▁integrated 128
▁tiyisiwa 128
▁twanani 128
▁vaviseka 128
tolovelo 127
▁Agency 127
▁Apply 127
▁Resource 127
▁Swiyenge 127
▁hundze 127
▁scale 127
▁sustain 127
▁tisisiteme 127
▁vulavule 127
X 126
ayisense 126
evenue 126
rhalanganyi 126
▁Chief 126
▁eye 126
▁hlamarisa 126
▁pfumeleriwi 126
▁pfuxetiwa 126
▁titwa 126
▁usual 126
hlanganiso 125
iphurogireme 125
▁Further 125
▁June 125
▁negative 125
▁remember 125
▁yimeriw 125
▁Address 124
▁China 124
▁Xedulu 124
▁feedback 124
▁hinkwabyo 124
▁hungutiwa 124
▁makanelwa 124
▁mavoko 124
▁njhekajekisano 124
▁swifundza 124
▁voice 124
Natal 123
▁arrangement 123
▁enlargement 123
▁komberi 123
▁milk 123
▁occasion 123
▁self 123
Zulu 122
▁Develop 122
▁Swifundzhankulu 122
▁fambelani 122
▁hakelela 122
▁initiat 122
▁interpret 122
▁kahlekahle 122
▁manyikelo 122
▁mudyondzi 122
▁muyimeri 122
▁nkayakayo 122
▁proud 122
▁speech 122
▁swihlawulekisi 122
▁tafula 122
ximali 121
▁Vumaki 121
▁ePalamende 121
▁historic 121
▁humese 121
▁mafundza 121
▁parliament 121
▁scheme 121
▁variety 121
▁vaxavi 121
▁vutirheli 121
ould 120
play 120
▁FET 120
▁Kumbexana 120
▁Tinhlayo 120
▁Vadyondzi 120
▁Western 120
▁chart 120
▁dialogue 120
▁endhawini 120
▁euro 120
▁obvious 120
▁operate 120
▁statistics 120
frame 119
kulorhi 119
▁Authority 119
▁December 119
▁Lesw 119
▁Masungulo 119
▁New 119
▁Vululami 119
▁Xikaya 119
▁divide 119
▁hatlisisa 119
▁honour 119
▁muako 119
▁pfumeleleni 119
▁physical 119
▁regulate 119
▁someone 119
▁tivikana 119
▁vutihlanganisi 119
J 118
tatimente 118
▁Nels 118
▁Ntsengo 118
▁boxiweke 118
▁mikanerisano 118
▁mixavo 118
▁select 118
▁traffic 118
▁tshame 118
NGO 117
erformance 117
▁FIFA 117
▁Good 117
▁Provide 117
▁Summit 117
▁Swinawana 117
▁chavisa 117
▁confident 117
▁malawulel 117
▁mianakanyo 117
▁mpahla 117
▁opposite 117
▁seketel 117
▁tshembeka 117
▁vutitivisi 117
Vupeladyambu 116
cinca 116
stead 116
sumption 116
▁Bindzu 116
▁Crime 116
▁India 116
▁Since 116
▁Tihakelo 116
▁cross 116
▁hinkwaxo 116
▁kwala 116
▁nkwama 116
▁obligation 116
▁vutumbuluxi 116
asipoto 115
mhasipala 115
tiyiso 115
▁Business 115
▁Convention 115
▁DHA 115
▁Tinxaka 115
▁advice 115
▁cultural 115
▁sungule 115
▁swifuwo 115
▁tomorrow 115
agoza 114
matshan 114
▁Allow 114
▁July 114
▁Kahlekahle 114
▁agriculture 114
▁confidence 114
▁laveki 114
▁mihandzu 114
▁ntshuxeko 114
▁regret 114
▁submission 114
▁tlhontlho 114
▁PMS 113
▁affairs 113
▁blood 113
▁fruit 113
▁military 113
▁nkhensa 113
▁object 113
▁temporary 113
▁Premier 112
▁Xiphiqo 112
▁Xitirho 112
▁achiev 112
▁competitive 112
▁comprehensive 112
▁consent 112
▁damage 112
▁half 112
▁hundzuka 112
▁inequality 112
▁malulamiselo 112
▁solidarity 112
▁suffer 112
▁trend 112
▁vavanuna 112
government 111
▁Honour 111
▁Improve 111
▁Mutshamaxitulu 111
▁Swivutiso 111
▁andlariw 111
▁exactly 111
▁families 111
▁matlhari 111
▁refuse 111
▁vutsoniwa 111
ization 110
wendzamhala 110
▁Financial 110
▁Take 110
▁Xiboho 110
▁friend 110
▁machine 110
▁mistake 110
▁residence 110
▁summary 110
▁tshike 110
▁Access 109
▁Key 109
▁Labour 109
▁Mayelan 109
▁Vaholobye 109
▁cash 109
▁dplg 109
▁hlamuseriweke 109
▁lavisisa 109
▁scope 109
▁switshunxo 109
▁twisisi 109
▁vavhoti 109
dyondzo 108
tshuri 108
tsongwatsongwana 108
wamapurasi 108
▁Companies 108
▁Vufambisi 108
▁White 108
▁advantage 108
▁delay 108
▁jekajekisan 108
▁medium 108
▁network 108
▁nhlayiseko 108
▁qualifications 108
▁swiendlo 108
▁Freedom 107
▁Vutirhel 107
▁candidate 107
▁honest 107
▁hundziseriwa 107
▁normal 107
▁quickly 107
▁satisfie 107
▁speed 107
gondzweni 106
kondleteri 106
▁Mimbuyelo 106
▁assets 106
▁discrimination 106
▁exceed 106
▁heleleke 106
▁inthanete 106
▁judge 106
▁near 106
▁phuro 106
▁tihuvo 106
▁vuhleri 106
▁vulavurisana 106
mokirasi 105
▁North 105
▁Road 105
▁Vuxaka 105
▁arrest 105
▁combat 105
▁commercial 105
▁mabiliyoni 105
▁masangu 105
▁rhurhela 105
▁tikhamphani 105
▁tlakusiwa 105
▁urban 105
▁witness 105
walungu 104
▁According 104
▁Step 104
▁definition 104
▁describe 104
▁mitsakelo 104
▁undertaking 104
▁xikweleti 104
▁xipolitiki 104
hluvukis 103
year 103
▁appreciate 103
▁carrie 103
▁deserve 103
▁hakanyingi 103
▁infection 103
▁ndzhaku 103
▁output 103
produc 102
▁ANC 102
▁Nhlayiso 102
▁Tax 102
▁contrary 102
▁entry 102
▁exchange 102
▁hayona 102
▁manufacture 102
▁participatory 102
▁qualify 102
▁swivumbeko 102
▁vantima 102
▁vessel 102
▁write 102
chuchisi 101
katsakanyo 101
position 101
▁Budget 101
▁Hikuva 101
▁Nyenyankulu 101
▁Registration 101
▁debt 101
▁declaration 101
▁ehlekete 101
▁minister 101
▁nxopaxopo 101
▁rendzo 101
▁similar 101
▁spirit 101
▁strength 101
▁tinomboro 101
▁truth 101
▁xipano 101
languteri 100
ngheneleri 100
▁Yindlu 100
▁Zimbabwe 100
▁dignity 100
▁facility 100
▁indicat 100
▁lodge 100
▁ntsako 100
▁offence 100
▁precise 100
▁replac 100
▁sayina 100
▁sexual 100
▁tilevhele 100
▁vumbiw 100
▁white 100
economic 99
ndzakhombo 99
nsurance 99
where 99
work 99
▁Group 99
▁Migingiriko 99
▁Safety 99
▁Will 99
▁assign 99
▁consolidat 99
▁copies 99
▁entitled 99
▁pfariw 99
▁premises 99
▁spatial 99
▁subsidiarity 99
▁swikweleti 99
▁tinghozi 99
▁Basic 98
▁Because 98
▁Clear 98
▁Mitlawa 98
▁Post 98
▁advise 98
▁designated 98
▁engeteriwa 98
▁mission 98
▁vatirhisani 98
▁xifaniso 98
▁ICT 97
▁Ndzavisiso 97
▁langutisisiwa 97
▁michini 97
▁morning 97
▁sensitive 97
▁sitting 97
▁struggle 97
bumabumelo 96
nghenelelo 96
▁Kanela 96
▁Swakudya 96
▁Tifom 96
▁adequate 96
▁condition 96
▁discretion 96
▁hetisiwa 96
▁propose 96
▁tumb 96
▁Promot 95
▁Tourism 95
▁abroad 95
▁attack 95
▁burisana 95
▁makunguhatelo 95
▁maximum 95
▁mihundzuluxo 95
▁nhlayelo 95
▁timinete 95
▁titsarisela 95
▁vafambisi 95
▁vuenti 95
▁xinkadyana 95
ntlhanu 94
▁Communication 94
▁Entiyisweni 94
▁Vuleteri 94
▁negotiat 94
▁nkanelo 94
▁tihofisi 94
kongomiwa 93
tshuxo 93
wangulano 93
xisati 93
▁Again 93
▁Language 93
▁Mudyaxihi 93
▁Regional 93
▁agencies 93
▁consensus 93
▁disaster 93
▁doctor 93
▁endorse 93
▁receipt 93
▁Assessment 92
▁Building 92
▁Cinca 92
▁Dzivamisoko 92
▁Everyone 92
▁Nevertheless 92
▁Vugevenga 92
▁accident 92
▁evaluate 92
▁story 92
▁tlh 92
▁tolovelek 92
▁translation 92
@ 91
khomixinara 91
▁Eskom 91
▁Gazet 91
▁Participant 91
▁SASSA 91
▁lessons 91
▁nkuriso 91
▁occupation 91
▁prior 91
▁reservation 91
▁space 91
▁Children 90
▁Standard 90
▁Swiletelo 90
▁Xitifikheti 90
▁category 90
▁chapter 90
▁coordination 90
▁estimate 90
▁expense 90
▁fulfil 90
▁marungula 90
▁patients 90
▁principal 90
▁promise 90
▁rhurha 90
▁sindzisa 90
▁skill 90
▁slow 90
▁suitable 90
▁unemployed 90
masocha 89
▁Framework 89
▁Nghenisa 89
▁Participation 89
▁September 89
▁Task 89
▁Tinhlengeletano 89
▁Tiphurojeke 89
▁argument 89
▁circu 89
▁delegation 89
▁enforce 89
▁foot 89
▁fraud 89
Q 88
iphabuliki 88
qhingha 88
▁Describe 88
▁Minhlangano 88
▁Senthara 88
▁Thirdly 88
▁apartheid 88
▁background 88
▁hinkwenu 88
▁humeleli 88
▁label 88
▁lwandle 88
▁makhombo 88
▁nkomiso 88
▁perfect 88
▁revenue 88
▁sanitation 88
▁spread 88
▁tekiweke 88
hangalasamahungu 87
ifikhe 87
▁Certificate 87
▁Food 87
▁Langutis 87
▁School 87
▁clarify 87
▁deposit 87
▁front 87
▁gingiriko 87
▁hazard 87
▁hetisisa 87
▁nyingiso 87
▁personnel 87
▁piece 87
▁pressure 87
▁taxpayer 87
▁tilulamis 87
bridge 86
tinyiketeri 86
▁Import 86
▁Support 86
▁cohesion 86
▁enjoy 86
▁equity 86
▁examination 86
▁innovation 86
▁package 86
▁science 86
▁studie 86
▁vadyuhari 86
ikhonomi 85
tirhelamfumo 85
▁MEC 85
▁Mpfapfarhut 85
▁border 85
▁bumabumela 85
▁chosen 85
▁electronic 85
▁mintlawa 85
▁muxavi 85
▁pimiwa 85
▁plenary 85
▁prefer 85
▁receiv 85
▁shift 85
▁vulnerable 85
atshalatshala 84
bedlhele 84
▁Nhlangula 84
▁October 84
▁Xitiviso 84
▁accessible 84
▁align 84
▁bulk 84
▁burden 84
▁defence 84
▁disadvantage 84
▁division 84
▁enormous 84
▁etindhawini 84
▁hetisekeke 84
▁impossible 84
▁inclusive 84
▁liquor 84
▁mhangu 84
▁ntshembo 84
▁participating 84
▁removal 84
▁substantial 84
kongomelo 83
▁Association 83
▁February 83
▁Humes 83
▁Nxaxamelo 83
▁Which 83
▁behaviour 83
▁envisaged 83
▁exclud 83
▁kusuhani 83
▁phurayivhete 83
▁quarter 83
▁vusimeki 83
▁Administration 82
▁Animal 82
▁Control 82
▁Growth 82
▁Vantima 82
▁amukeli 82
▁decade 82
▁drink 82
▁exikolweni 82
▁financing 82
▁hlengeletiw 82
▁operating 82
▁pregnancy 82
▁sentence 82
▁suspect 82
▁welfare 82
khetekanyo 81
▁Employment 81
▁Energy 81
▁Nseketelo 81
▁Vavasati 81
▁allocation 81
▁flow 81
▁incident 81
▁longoloxiw 81
▁madoroba 81
▁reiterate 81
▁transition 81
▁veterinary 81
▁Civil 80
▁Gender 80
▁Kwalaho 80
▁Papil 80
▁Person 80
▁Together 80
▁ambitious 80
▁degree 80
▁eKapa 80
▁mitwanano 80
▁mufambisi 80
▁mukhuva 80
▁possibilit 80
▁practitioner 80
▁refugee 80
▁religious 80
▁transparent 80
▁vuyimani 80
▁workshop 80
profit 79
▁Durban 79
▁Mavonelo 79
▁Research 79
▁SWOT 79
▁Swifundzankulu 79
▁choose 79
▁generation 79
▁married 79
▁ndzinganano 79
▁nsimeko 79
▁rejistrexini 79
▁survey 79
▁teaching 79
▁tsemakanya 79
\ 78
ejensi 78
ulamiso 78
▁Contact 78
▁attitude 78
▁census 78
▁margin 78
▁matitwel 78
▁nongoloko 78
▁pimiweke 78
▁sayiniwa 78
▁servants 78
▁setifikheti 78
▁yuro 78
▁Account 77
▁Establish 77
▁Swipimelo 77
▁completion 77
▁contribut 77
▁encouraging 77
▁execut 77
▁generate 77
▁hundzulukela 77
▁ignore 77
▁mphamelo 77
▁muhlayisi 77
▁neighbour 77
▁ntirhweni 77
▁pattern 77
▁voluntary 77
▁xelexo 77
▁xiximiwa 77
phurosese 76
▁CCMA 76
▁Infrastructure 76
▁Vamasipala 76
▁college 76
▁geographic 76
▁gingirika 76
▁mugangeni 76
▁pension 76
▁permission 76
▁swifaniso 76
▁terrorism 76
▁tumbuluka 76
▁yourself 76
pimanyeto 75
▁Census 75
▁Dorobankulu 75
▁Khansele 75
▁Strategy 75
▁Vutihlamuleri 75
▁reduc 72
_ 57
= 54
+ 35
• 33
| 28
é 26
# 22
$ 16
‐ 13
⁄ 12
£ 10
í 6
¢ 5
á 5
â 5
© 4
è 4
ï 3
ô 3
ö 3
> 2
^ 2
Ã 2
ç 2
madeupword0000 0
madeupword0001 0
madeupword0002 0
madeupword0003 0
madeupword0004 0
madeupword0005 0
madeupword0006 0
